; Memory initialization file
; Tensor Dimensions: 64x152
; Tensor Element Type: torch.int32
; BRAM Data Width (COE): 64 bits
; Elements per COE word: 8
memory_initialization_radix=16;
memory_initialization_vector=
7672767c7e747373,7c7375624f4e6575,4b6b787d97bbc59d,6d7e76707c744f38,ad957d7a78513a46,695f6b7173728baa,707478796f707273,74745e494a66797a,627385a7d5deab81,78736c7c6e40233a,a0827c794226355f,606a7275758fb6bf,7980807773747469,7062514b63717671,787782a4af927b75,7770857f664f5970,6f74775f51647c82,6c7374748495957c,00000000006f6460,7b6d716f73747373,7473858888847f7b,6d696c847f7c7b79,5f616370776b6467,71737272776d6561,79777a7b77787071,727a7a7c7a767476,6c91999b92867d7a,5b5f8d8b877e7871,4b516576675c585e,696b707a66574d48,7b7f82807f6d6a67,777a7a7572727a7c,8b93988d817a796e,678786888078726e,5a6a786d68666866,6a707b6a5f5a5354,7a7d7f836e6c6c6a,0000000000757778,7474747474747474,7474747474747474,7474747474747474,7474747474747474,7474747474747474,7474747474747474,7474747474747474,7474747474747474,7474747474747474,7474747474747474,7474747474747474,7474747474747474,7474747474747474,7474747474747474,7474747474747474,7474747474747474,7474747474747474,7474747474747474,0000000000747474,7073727573737273,716f726b6a717470,7373706f60616870,7473736f73666a6e,7777757773756c71,7274737174727573,7776787676747773,76786e6a73787778,7876735f5d667378,7376757663636a74,76757978796b6d71,76757478787c7576,7a7c7873706d7a76,7e79757b7c777376,737869676e767873,757278686a707578,7174717a6e717573,7470737079747475,0000000000787575,7474747474747474,7474747474747474,7474747474747474,7474747474747474,7474747474747474,7474747474747474,7474747474747474,7474747474747474,7474747474747474,7474747474747474,7474747474747474,7474747474747474,7474747474747474,7474747474747474,7474747474747474,7474747474747474,7474747474747474,7474747474747474,0000000000747474,7b73706c72777b71,997b69635b71818c,9fa579605650728d,7fada37658484a77,618ba5957153474f,656d8c958b705955,76777975736f745e,7278797577717173,6f71777976786d70,716d737a7879756c,736f6b7677747971,73726d6d75797678,727973736e777876,8186827768647174,6f83908e765a586c,4c728f9b9b704d4f,4e56799299966249,605a627b918d855d,0000000000897f75,6c696f71726f6f6b,6f6d696d72736e6c,7c777170757f7c73,9f86736e73889a94,918c7e706e768ca4,767978716f6e7383,8e868081858a8f72,84806f686a777d88,6d80745c50536876,4e677f6046323650,3d596a845e3c252c,585c69778a634a39,6a6f6c67675e715e,757b827e78726964,6d7d868e8a837769,816f85929791877f,897d6e8d9396928e,8d827868858e958e,00000000007f848e,7474747474747474,7474747474747474,7474747474747474,7474747474747474,7474747474747474,7474747474747474,7474747474747474,7474747474747474,7474747474747474,7474747474747474,7474747474747474,7474747474747474,7474747474747474,7474747474747474,7474747474747474,7474747474747474,7474747474747474,7474747474747474,0000000000747474,7174787177707970,6a73718466777677,b2547a6793606a8c,38c14b7d609f614b,704fa55b775f9b6d,86676884766e678f,75766c766f7c7170,7372865f74777a71,5778699c4f5e976e,dc4f7b64b44a34ca,3bb4607763af591c,5e6088796d6b9b62,776f77727b707087,7081687973757173,7b698b656e846a73,4e7f66936855a557,9a5c7a688e7244b4,6d81746f6c857256,0000000000718169,7474747474747474,7474747474747474,7474747474747474,7474747474747474,7474747474747474,7474747474747474,7474747474747474,7474747474747474,7474747474747474,7474747474747474,7474747474747474,7474747474747474,7474747474747474,7474747474747474,7474747474747474,7474747474747474,7474747474747474,7474747474747474,0000000000747474,767576757b797273,5f6a7a716868656a,938a827263555257,b3a996847f848a92,696b6c6e767f8ba1,675651535d6a746a,7574717574717275,6776675b59576471,978a6d5b4a474f5c,baa48c858c949ea1,6c6e71778896b0c6,534b505e69786d6b,74767878736d7667,7773706f6b727670,7d7069605c60676d,887e797e80838681,6b707579808e9a92,66686f71746d6b6a,000000000076736a,787d695e6e7c787b,746b62516688897f,7158635a6697a68e,6f55536c6d87ad9b,7c635d647c77898f,7d6d5e6371857985,7c63576b7b787b76,695c47628c8c8178,555e56639fb49375,534f676b8ab9a875,62596177778b9674,6f5e62708279867e,6d626f7572757880,6c5b69837e7a777e,6c64688f98817470,65746f7d988c7062,696f7a727a7f6d61,686d757f737a7669,0000000000797e71,777b7a7775747575,7a787c7c7d7b7979,6e727977787b7d7b,66676d746564686f,7074767777605e61,79797c7977777573,787778787674747a,75787a7c7b787575,6d757576797a7876,666a726260656b69,78797776625e6266,797d7a7676777473,6d6e70706f747a78,6e6f70706f6e736f,7572717373716f73,6c7368686a6d686b,7a77776d6a6c6e6b,7b7874757c7b7a7c,00000000007a7878,7474747474747474,7474747474747474,7474747474747474,7474747474747474,7474747474747474,7474747474747474,7474747474747474,7474747474747474,7474747474747474,7474747474747474,7474747474747474,7474747474747474,7474747474747474,7474747474747474,7474747474747474,7474747474747474,7474747474747474,7474747474747474,0000000000747474,5e727a857d746a6c,5c598285887a6f61,665a5c898a8b7869,74685a5e8a898875,8473685b60898887,828173665b628684,787f867c70656985,5389888878695a58,525693918d766254,63525998948d7560,7262535a97938d74,827162555f918c86,778079736c748d87,7d7c7d736d626870,6a83827f70676065,5f6c8a858170665e,68606f8886827068,7069637484807c6e,0000000000847e7b,724a557681817877,676e698fb0a88b77,51596c90bac49c76,2e43566da0b29960,413a5b718389794d,5a4c5679898d775f,7e76746f7372746b,75706a6b6e707372,77766a656b6d7475,7875736c6d757277,797a76746f707572,7c7c7d7975747a7d,8f76686c70747d7d,826343496173769b,7e61382b4e717b78,8d7a56405988988f,8a7368656c94b2a6,896a5b5f7087a3a5,000000000078848f,70717576726e6c6d,736e7c8388807574,79716c81888f8978,84797570818c9088,7f7d75746e7e898b,77797a75726d7b7f,7775717277797d75,78706f6d6d70767a,6f736c6664676c74,68727667625a5d68,606c78796561575b,666871777a70685d,6f7272747673726c,75767a797578766f,737a777c7d777874,7d777c7b7c7d7c79,787d747a7b797a7c,7c7c7e757c797576,0000000000797979,77757679797a7a77,7b7876787a7a797a,7a7b7978797b7b7b,7a7a7b7979787b7a,78797a7a7978777a,77797a7a7a787776,6d6d717272716e76,716d71767674716d,797372777d7d7b77,7b787375787d7e7d,7878757274757a7c,757674726f717175,6f71717170717071,70707372706e6e71,727374787976726f,757375757a7b7975,7574737572777978,7675737473707477,0000000000747376,7270737272747375,7373717473737373,7273746f73727174,7370737370838b74,726e7373726e848e,706e707371716c70,727372727372736c,7171727172737270,7574707372717272,747575768c957c76,74767572758f9a7d,7577787472717879,7978777674777478,7578767674747576,7872747271727376,747775888f777374,707274728790756f,737472736e706f6c,0000000000737671,7c7a80807f77786f,7f7f737e84837e81,7a7c826b7880817e,7574757a676e797d,63696c707460636f,56575a63666d5b58,7c8182827a7a7364,7f707a81817c7f7e,787f68747e807c7c,7172786268747a79,666970755b5d6a72,545963677058545e,7f7f7d7675716455,70797d7c7779797a,7c6a757c7b78787b,72766a6f787a7675,7074786769727571,646b6d7267666d70,00000000006e6263,717c6e696c787770,7f7386755f5e777b,6f8176937e564e72,4c6a7f759c875649,705d697c76938563,7e756a6b73708f81,7e6e666c7a7d728a,7989755556768276,857a9a7e4a436e84,628178a78e4f3c68,57627b779e8d5e41,746866726f97866f,6e6e757875708c7e,7773686d7a7a7372,767d766062767b73,7d7586806361767e,707976807e6c6172,756f72737e79756e,0000000000787575,757672696b6e737b,7b7871716c6b6f73,7e7b76767777787b,7e7d78747a7c7b7a,7b7976706d7f7f7d,72706f6e6d6c777b,7370686a6e757a71,7c73736f6f737879,807b7778797c8080,807d787a7c7c7d80,7e7d78737f7e7d7f,77777676727c7f80,6f68696d72777577,72716e6d70747673,7574747577797b79,7572747474747778,7673707977757676,7474767478797a77,0000000000747474,8179716368778477,8a7f756d636a7b88,7b8b7b756e61667c,6a788779766d6266,6869758374766f65,7667697681717676,7c6e5a6277878070,87746352607b8c8a,8f837262505b7c8f,788b817463515c7a,6274847b75665562,5e6373817877705c,766769727b757271,786e6268757e7e80,7a776f6264767f7b,7f7b796f63677681,727c777b72666a75,6c747c777b78696a,000000000075796a,8b70716664778c94,5877767059455575,34446385885e373b,945b556591ae904b,bab0846e6f82b8ca,57879687756f538b,7477767b7a776f3a,797375787d7d7d76,7d786b72737d7d7d,717a76666a6c6f7a,696e74786e696b6e,6f686a7174736f67,75797e6a5b577b76,74768a98836a5c76,7e6a6b86b0a4846c,907c5e475c99af9a,6c7c776e3b2b5e88,5a68757792653645,0000000000a38e69,7771787f76666e73,6f7372655f8da083,8d626e7c8d742937,3d8a8d796b65a1d7,9f724e66727b722e,6f6a818678746b79,747982786a727579,6f725d517e997e75,696f81987f212663,919a806768bafea8,643e5f727665172e,6e878775716c7c9e,787d6f6774787d73,7164628791767073,747c867539487472,877a73699ac38a68,5a6a757a7a414485,767f73736b76a080,00000000007a6c61,71787977766f6f72,7a6e737576787374,85836d6b71757979,828c897061677081,6d7f8685745d626c,666d7c807f745d64,7878757873747262,756d70727a7b7e75,96766068707d858a,9d9d7a535a6b8794,8694977c4d54688a,6a838d8e7b4f586a,777474717472575c,6e707076797d7677,7361676d77808674,9776575c69809091,8e90785157668397,7a8689795359677e,00000000005c5e67,6564616364646371,666d5f5e5c5c5a5a,746f716b69666567,87867f7876747172,8a8a898478848585,8a91908f8b7c8088,605b5b5d5c5d6c7e,67585452514f515d,6d6f66625e5d5e5f,8a827a7672717273,93908a7b87898b8d,9a9997907f868e93,6467686767758491,615f60605d5f6968,736c696867676971,7e79767272747370,8582778182858683,8b8985797e848888,00000000007c868d,7e6f70717774757d,6c756e7275767176,59626f666a706b67,585b606c5d5a5a58,5b60636a725e5752,67656b6d72776760,7677787b7574746b,777f858a887e7f7c,807c7c8590887e7d,7e7c787e8185837e,7d7c7d777d7d7c80,7b807d7d777d7b79,6d686c686a6a7c7a,757270716c706f70,74727378746e716b,7c747d7d7e7d797b,7a7a727f817f847f,7b74756e80807e7f,00000000007d7b7a,736b636d70717470,8270726c7c807c7f,9e876e757691978c,bca087707e8ab4b6,909b8d7e6a7d8ab7,637a8582806e6970,807e797876757e63,7875756a676a6c77,6477726d59596469,4f62786d60464153,575f6a7c6d5d4341,69676b6f7a786f58,7976767871707f7c,727b7673716d7173,78727b7070737074,7277707365636d73,6f7277717163626b,716e6f727a7f716f,00000000007c8175,757c756f79817677,76757a6d47527073,7974727c7d6c6a78,7776727076787f7c,7472737371757378,7476737273736f72,796d636e7d757673,7676623542686f73,78777b78605f7274,7b7877797b807a7b,737777777a787b7a,7a76767879747576,7a7e858374727a78,7572596376737375,72767a6e6c747173,707073767a757370,7372737572717072,7474737671727270,0000000000767576,6a78757474737476,847e747370655b5f,b3a48e7773797c7f,695d6066757b88a1,6350424d5f71716d,76798188887d726e,77736f6e6c6d7272,8a76726d61595f6e,b8977a757e889095,59565d798295b8cd,3d2b385173736c66,757d85867b6f6856,7371747574736f73,7573716a64667172,7f78727372747a7a,696c74787d8d9a8f,555f697576726f67,8085867e75726b60,000000000071777a,6b68665b5b5f6367,6d79605b4d515961,768182615952545c,8e8f90846463646d,949a968e7b787f86,939ea093897c7f8a,7d7c7a7a7e7c7b8d,777f7c767b7f7c7a,7b777a7471707277,75736c797674757a,72736e6676757475,6f726f69686e6d6e,7f818284817c6d6b,8587898c8b807a7b,708281837f7a7570,64658583817c7873,64656a76706b6764,6164656d6b645f5f,0000000000655f5f,7d797672787f8082,7477736f696e767c,666f75706863676f,67666b726e645e5f,6968686e746e6869,6a6468717779716a,7475717375747274,7174747171747673,7272716f6d717272,7372726e6c6d6f6f,776f70716e727c7c,6d707275746f7178,7673716d6a67726f,7a807f7c75736d73,747b8185857b756f,7e777e858c8b7f7c,7a79767d8a9a9784,7d7877737a85908a,00000000007a7c7e,81817c75767b7c80,787e7a756e6e747b,5f6b77776f68686e,56616975675f5558,615c606976676056,70696468727b6b67,65666c6d67656170,656c6f77746b6966,7e71797f8985756f,9c88778899a5a38b,a491806f8fa3b3b0,9893847b6b8898aa,7a79797d7c7c7e8a,7978797a7e7d7c7c,74757070747b7b77,72756f655b637074,6470746c594b526b,61717c7c6a564b4e,000000000073665f,6e7074757570716f,706e737776767372,7877757476767873,857977737c7d7f7e,93887e79747e898d,85837f787571828f,717575747376787c,7273737173737675,6f72706e6d727172,6e6c6f6e7277756d,83716d6f71869182,756f696a6d738b94,7573727477786874,78767375787a7774,7877716f73777878,75786d6a6c6c7075,71787b68737b726e,6770797c69757c71,0000000000676a67,6d6f737676716c6e,736e767a7d7b7970,79736e787e807d79,807a726f787c817f,807b76706e797d84,76797874706e787b,807d76767a787874,7680796d6c787774,78757c736464757a,727475776c626472,67727576756c6766,6a6d777979756e67,7a70707b7b7c776f,796e5e6074767480,7775675658717877,74777263575a7177,74777870655c5e72,697a7b7c71686061,0000000000756c65,7474747474747474,7474747474747474,7474747474747474,7474747474747474,7474747474747474,7474747474747474,7474747474747474,7474747474747474,7474747474747474,7474747474747474,7474747474747474,7474747474747474,7474747474747474,7474747474747474,7474747474747474,7474747474747474,7474747474747474,7474747474747474,0000000000747474,7675747474747476,7877757572717375,7877757675747775,777676757674757c,7575777776757474,7776777676787675,7775747474727578,7173726e6f706f71,706f727070757371,716e71726e707975,6f706f7273706e72,7172706e7474716e,7375777571707574,7273757a79747173,7171737d8b847972,7974717382968c7b,79747372737d8983,787571747172757b,0000000000727374,7474747474747474,7474747474747474,7474747474747474,7474747474747474,7474747474747474,7474747474747474,7474747474747474,7474747474747474,7474747474747474,7474747474747474,7474747474747474,7474747474747474,7474747474747474,7474747474747474,7474747474747474,7474747474747474,7474747474747474,7474747474747474,0000000000747474,77776f70837a7170,83736e80a2685770,7f6377858d2f3d8d,5048867a714069cd,59649d786e6b81af,7479866d6d737976,7a6e6f8079727570,776c7e9c5c547178,576a7c801f43a790,2974716b3f84fb8e,499478737494c747,728576717a81784b,6d657a767071716e,6774976b5f72787d,7374884150948475,7d7173537bce7f62,9573707185a84a44,7e6d70797d77565e,0000000000737173,6c7076737a756972,63796d728584677b,b77d7276684ead92,3d5496746f885231,6a8d4e7979795ea8,897277706b738863,75776a737e727673,816f7581785e7c72,726c7a7449a0885d,4d936d6e9e5f1bac,a25278766c64ce47,64797873767f5574,7a696c817776717d,72767b615a817379,6d7a7a5f8f695982,856a6b9c80499b5e,6777736b5ec16e63,757f7679795768a4,00000000006d7960,7373807e63677f71,84756c7f9b4a6a83,6c81766a7db72e6d,4a6b80776b78b72e,7e6a697e75717899,787176667c757479,6d86806368817178,766189a842628474,84775a8bd11f6287,637e745a87d62261,6b667e736580aa44,717a687d716e7d82,7f7a6f707971757b,687a945d7278746f,746373af45757572,73766671b1487674,6e75736c72925d73,7e6c767471777a75,0000000000747b72,7778716d77787575,626b818b999d897e,6472746e6e5e4a51,b5927a70553b233f,766f7076757e97ae,746f71707474767c,7874737a7b777275,668196a4a28b7e74,707467675137435b,9f81754b2b102e5d,77767b7882a3c3ca,6a6c6f73717b8481,6f6d6e7072747270,767f87897d7a7373,75737b7562636d6c,7371665646586f77,6f797c7d8b9c9d7f,7372737276726d68,000000000073706f,517b7a7b83645573,825d757b7a96814c,a39d7f6f797a9fad,63838b856363638a,5250717f7f695a47,846c5764727a7c71,787578805f517280,59777c7d9b844950,a07c71797ba3b282,878d826461628ca8,4f72817c6b5b4865,6e586775797c7352,6f71786a66867c84,79756e7f77586b75,7477796f7c8a7467,757473716c78807e,7777737873697177,6d7477797a7c7069,0000000000747e7b,7a6a728b835e7072,647665679e9c526a,55657564599fa84b,9d656a74655094ae,748a706d746e5882,7171817974727668,6e7691865a6f7377,716268a9a64b6475,60715d56afba485e,65666d604ba3c255,907370746a5186a9,72827a7673776574,727d7a6579747872,7165858a59767875,78725f8791527276,7275755b85975972,6d74787861778a64,7b7576727c6d717e,0000000000777271,7d867b6a6b767e80,707b7d6d585b6a77,5c68737863505462,515b636b715d4e4e,5b5f6d74756c5a4e,71666c7a81807666,72777773716e667c,72777b7c7d78746d,7f757b7d82847f79,807a727e848a8985,7d7a766e7d7f8787,777775756d7a7a7e,7679757576727675,6e74767573747371,766e717577767575,74756e7277757676,7473736f71777575,7373737470717573,0000000000717375,6c787a7c7d78757c,6c6c727374726d6a,737272727473706d,7d7f7e7872757272,777a7b7a76737879,6c7578797b7b6a71,7778787874737966,6f767473716e6c6d,7575767673706e6f,81807a7777737274,7e7f7e79787b797c,7b7e7f807f71767a,7675767371756e74,767472716e6d6d76,747775706f6d6e6f,7a75797770707173,7776737a7973777a,7877797975767578,0000000000757677,6e74737874717473,897675746e757d75,366e7e7982715577,d17453746b7fa968,3a85a9766e6f5794,846850767e767b58,7577776f72777580,7a77796c6c7b7873,5b787a8972426485,834a6d6889c3701f,95c17e6e664fadff,574275807a72452c,737671707576817c,73736e737a737076,78777f6f55728274,5a736e7d9f683c6a,a2756f756094ca77,59777b7877624684,0000000000777f6e,7474747474747474,7474747474747474,7474747474747474,7474747474747474,7474747474747474,7474747474747474,7474747474747474,7474747474747474,7474747474747474,7474747474747474,7474747474747474,7474747474747474,7474747474747474,7474747474747474,7474747474747474,7474747474747474,7474747474747474,7474747474747474,0000000000747474,7376717776747373,6f7870778d7d6a6c,748f807d8e8a5050,6fa88f7683784b2c,7b9394736b6e594d,727a837764656d6f,77737b78726f7172,787580977d646973,95858698883c3e6c,b19d7f8973330f69,97a27f726b493662,808b826d6b686776,6f72747673747576,6a6e878174737472,7875868f635e7172,7d71828161467885,826d707262596e96,78756d7271727883,0000000000777575,7176756f777c7170,5c79747171767d6c,575a866f7b668086,a51a927b737a5ab1,9f534da163776488,7979508c7675746d,747473777b707173,7b757476777e6b72,4e8b717e68858451,00948377795bbe49,4043af677a6192a6,7646937d70776ea5,7373777770747376,7675797075727774,7f7180686f81687c,9a70777b4d9a666e,6b975b795e719f3d,6391676c77679060,0000000000767578,73746f7976717174,67706965797f7a75,47697760749a886d,216c897c7a9fa14f,466a9e83738a8f50,6b728b856c6d7866,736e79797476736a,6a686983857a746e,62746681aa8e6762,5f897f85aea74034,5fa38d7b8d8d3c01,6f8f8e7672765b31,7379757173736967,6e69757876747077,7566708e85736d70,7e7575909c5f596f,9279747d855a3570,81796d76786c5371,00000000006e6e73,7475707174777575,6f70706f70717274,786e6f7071787a73,84776d6e727a8986,74787471726e7884,6a6f75747573686d,6c6c717173726d64,7276797e7e7c7b71,80737d849192877d,9080718693a8a492,8c837a6d8492a2a1,7d807873697b808b,807c7976717b7478,78776c6a6c6f7a7e,7e6d6250535f6e7e,687b644f37375167,6774816551343652,6a6f747f7c6d5555,0000000000877e6e,7173757374757473,8471746b7c736d79,ba64716c818a487b,d1754d83768d395f,9c883680777f6153,747e5c7a82707462,7678726a737a7971,6e796e7b6b6f8172,616870827d39868b,853a7d75811d67db,98257077795253fd,81506c7d777765b0,75706f7677777978,766c7977717a7275,6e6e7c89527c826e,5183748b4163b160,428075796256c672,5e7c797274659582,000000000077777d,796f717477797b77,77776e6f7175787c,6e74776d6e6e6f72,6f70767a70706e6d,7372737779757371,7676767578787674,6f717577797b7878,766c6d6f73767977,73756d6d6d6e7176,717678706f6e6d6e,7374777875737170,7777767777777574,7173747271727876,6d6f7071706f706f,706f7170706f7070,7072717272706e6f,7170727373727170,706e6d6f72727171,0000000000706f70,726f717c6f777475,807370659364747a,5c74758739988954,89886c73995838bb,6d5684747572af22,7586647573755e96,6a7382707470746f,726a5c9d6a717874,6f72881f99a0587f,936c73a6401ace65,4989767782b20186,865d74727368a362,747a70787274717a,6d6a8c6275767470,74814494815c8071,6c738e6348b05b74,84737668a5388a82,6577737363877260,0000000000756f7d,7679656d77717176,7679585369797072,787d7a4e5a7b8674,887b7972566c8e8b,8585756d6d5e768c,7f85806d6e736879,79636c767170746e,7a514a6578707175,817b44537c887679,807f744c6a95907c,8777706c5a78938c,867e6c6e72687c89,6f71767272737081,6d606b736d717387,796464797c707578,797266708780747b,7471706774817b77,786f72756d747b7b,000000000070797c,726f77757578776f,7971868e8d86857f,7c7a75838584817d,7275746f807f7f7d,69696f706e767673,5a585a616368706f,70797a7b7c7a715a,738b93948e8a8476,7d7786898a87817c,74746f818282817f,636b6e6c74767271,52545c5f666c6a64,71737272736d5756,838c8d84817e7269,767f81817e797870,77717a7a7b7a797a,7175737173727376,5f65697071706c6c,000000000062615e,7476757476727674,7577777274757574,5f66787475757070,615a627773756c65,767572787e707169,76777b7d7e787477,7674707270737575,7675707071717174,61787473716c6b71,535f797273675e59,716f767f706f645a,7377797975757773,7776787477737676,77757a7a79797676,7c76797c79797b79,6b79777b75706b70,70767a75766e6762,7578797472757270,0000000000737472,75786e766b7a7174,72737b7569767b72,6e75727d78508773,ae6874718e6e3ca4,55a06a747495583e,5b66877176759158,756d716e7f727784,717c736179837375,726f827141907f70,747070975d26bc7c,ba7370719d4028ce,649676727595434a,71726d7c71768052,777a6b787d737573,70747c5786767472,746e7e714aa36f76,6b7370835f4eae6a,887173748260619f,000000000079666e,68757573736f7275,806f73767a7d7367,9196806e737b9497,304c78866c634963,966e50576e7c835e,6e828782746c7587,737475777576746a,7871767d857f716e,a28b69697599a68f,30728768532d4b8e,6339456383844d0d,98968773667d93a0,747374767778717d,74747775716d7273,7771717a89897a71,797e6e635162858a,565b6b7c80683e55,8482776c757f9271,0000000000747483,6f6e717a7e77706c,7470787c81827a75,767772777a7c7f77,807a7a767579797c,7c8177727073777b,75808273706e6c73,6e70777c76726c6d,70797a7d7f7a7770,7b737879797c7777,7b7c76787b787b78,817a77737678797e,828578767172767c,6f787c756e68737a,7a7b80817b76706d,707778777b75746f,7874757773757376,7774717373757a76,817575737072797f,000000000073767e,7576767879797773,646f7b7a7e786f6f,676a727879796961,727375767777746a,7475767674767774,7775767678757477,7675737575747276,6d777878726a6b71,6670767876665e60,7172747577736964,7777767476777372,7375757573757975,706d727473747678,6f7172706c6d7471,746e737269656671,73766f72706c6b6c,77747471736f7274,7071707172767175,000000000071726d,727276777977756f,8e84707476818580,406f876b6a5c5c7b,7b4f516d7b806c3e,919a8270717c8899,606e808076716f73,7474737576787368,8a7371707d88887c,5a7e6b654f497091,3f3c617f84662521,a9876c6c8698ac80,7a8c897c757480a5,7475727076736766,7573767e7c7a7576,7b6c6a60627a857c,5e70797c6d4c4d6e,8074737e8493825e,7a79737373778a8f,00000000006b6a71;
