; COE file generated from conv1_kernel.bin
; Matrix dimensions: 64x147
; Element size in binary: 8 bytes
; BRAM Data width: 64 bits
; Data depth (total elements): 1177
memory_initialization_radix = 16;
memory_initialization_vector =
7672767c7e747373,7c7375624f4e6575,4b6b787d97bbc59d,6d7e76707c744f38,ad957d7a78513a46,695f6b7173728baa,707478796f707273,74745e494a66797a,627385a7d5deab81,78736c7c6e40233a,a0827c794226355f,606a7275758fb6bf,7980807773747469,7062514b63717671,787782a4af927b75,7770857f664f5970,
6f74775f51647c82,6c7374748495957c,6f737473736f6460,8888847f7b7b6d71,847f7c7b79747385,70776b64676d696c,72776d65615f6163,7b77787071717372,7c7a76747679777a,9b92867d7a727a7a,8b877e78716c9199,76675c585e5b5f8d,7a66574d484b5165,807f6d6a67696b70,7572727a7c7b7f82,8d817a796e777a7a,
888078726e8b9398,6d68666866678786,6a5f5a53545a6a78,836e6c6c6a6a707b,74747577787a7d7f,7474747474747474,7474747474747474,7474747474747474,7474747474747474,7474747474747474,7474747474747474,7474747474747474,7474747474747474,7474747474747474,7474747474747474,7474747474747474,
7474747474747474,7474747474747474,7474747474747474,7474747474747474,7474747474747474,7474747474747474,7474747474747474,7372757373727374,6f726b6a71747070,73706f6061687071,73736f73666a6e73,77757773756c7174,7473717472757377,7678767674777372,786e6a7378777877,76735f5d66737876,
76757663636a7478,757978796b6d7173,757478787c757676,7c7873706d7a7676,79757b7c7773767a,7869676e7678737e,7278686a70757873,74717a6e71757375,7073707974747571,7474747478757574,7474747474747474,7474747474747474,7474747474747474,7474747474747474,7474747474747474,7474747474747474,
7474747474747474,7474747474747474,7474747474747474,7474747474747474,7474747474747474,7474747474747474,7474747474747474,7474747474747474,7474747474747474,7474747474747474,7474747474747474,7174747474747474,8c7b73706c72777b,8d997b69635b7181,779fa57960565072,4f7fada37658484a,
55618ba595715347,5e656d8c958b7059,7376777975736f74,7072787975777171,6c6f71777976786d,71716d737a787975,78736f6b76777479,7673726d6d757976,74727973736e7778,6c81868277686471,4f6f83908e765a58,494c728f9b9b704d,5d4e567992999662,75605a627b918d85,6f71726f6f6b897f,696d72736e6c6c69,
7170757f7c736f6d,736e73889a947c77,7e706e768ca49f86,78716f6e7383918c,8081858a8f727679,6f686a777d888e86,745c505368768480,7f60463236506d80,6a845e3c252c4e67,69778a634a393d59,6c67675e715e585c,827e787269646a6f,868e8a837769757b,85929791877f6d7d,6e8d9396928e816f,7868858e958e897d,
7474747f848e8d82,7474747474747474,7474747474747474,7474747474747474,7474747474747474,7474747474747474,7474747474747474,7474747474747474,7474747474747474,7474747474747474,7474747474747474,7474747474747474,7474747474747474,7474747474747474,7474747474747474,7474747474747474,
7474747474747474,7474747474747474,7474747474747474,7174787177707970,6a73718466777677,b2547a6793606a8c,38c14b7d609f614b,704fa55b775f9b6d,86676884766e678f,75766c766f7c7170,7372865f74777a71,5778699c4f5e976e,dc4f7b64b44a34ca,3bb4607763af591c,5e6088796d6b9b62,776f77727b707087,
7081687973757173,7b698b656e846a73,4e7f66936855a557,9a5c7a688e7244b4,6d81746f6c857256,7474747474718169,7474747474747474,7474747474747474,7474747474747474,7474747474747474,7474747474747474,7474747474747474,7474747474747474,7474747474747474,7474747474747474,7474747474747474,
7474747474747474,7474747474747474,7474747474747474,7474747474747474,7474747474747474,7474747474747474,7474747474747474,7273747474747474,656a767576757b79,52575f6a7a716868,8a92938a82726355,8ba1b3a996847f84,746a696b6c6e767f,7275675651535d6a,6471757471757471,4f5c6776675b5957,
9ea1978a6d5b4a47,b0c6baa48c858c94,6d6b6c6e71778896,7667534b505e6978,767074767878736d,676d7773706f6b72,86817d7069605c60,9a92887e797e8083,6b6a6b707579808e,736a66686f71746d,7d695e6e7c787b76,6b62516688897f78,58635a6697a68e74,55536c6d87ad9b71,635d647c77898f6f,6d5e63718579857c,
63576b7b787b767d,5c47628c8c81787c,5e56639fb4937569,4f676b8ab9a87555,596177778b967453,5e62708279867e62,626f75727578806f,5b69837e7a777e6d,64688f988174706c,746f7d988c70626c,6f7a727a7f6d6165,6d757f737a766969,75747575797e7168,7d7b7979777b7a77,787b7d7b7a787c7c,6564686f6e727977,
77605e6166676d74,7777757370747677,7674747a79797c79,7b78757578777878,797a787675787a7c,60656b696d757576,625e6266666a7262,7677747378797776,6f747a78797d7a76,6f6e736f6d6e7070,73716f736e6f7070,6a6d686b75727173,6a6c6e6b6c736868,7c7b7a7c7a77776d,747a78787b787475,7474747474747474,
7474747474747474,7474747474747474,7474747474747474,7474747474747474,7474747474747474,7474747474747474,7474747474747474,7474747474747474,7474747474747474,7474747474747474,7474747474747474,7474747474747474,7474747474747474,7474747474747474,7474747474747474,7474747474747474,
7474747474747474,7a857d746a6c7474,8285887a6f615e72,5c898a8b78695c59,5a5e8a898875665a,685b608988877468,73665b6286848473,867c706569858281,888878695a58787f,93918d7662545389,5998948d75605256,535a97938d746352,62555f918c867262,79736c748d878271,7d736d6268707780,827f706760657d7c,
8a858170665e6a83,6f88868270685f6c,637484807c6e6860,817877847e7b7069,a88b77724a557681,c49c76676e698fb0,b2996051596c90ba,89794d2e43566da0,8d775f413a5b7183,72746b5a4c567989,7073727e76746f73,6d747575706a6b6e,75727777766a656b,7075727875736c6d,747a7d797a76746f,747d7d7c7c7d7975,
73769b8f76686c70,717b788263434961,88988f7e61382b4e,94b2a68d7a564059,87a3a58a7368656c,78848f896a5b5f70,70717576726e6c6d,736e7c8388807574,79716c81888f8978,84797570818c9088,7f7d75746e7e898b,77797a75726d7b7f,7775717277797d75,78706f6d6d70767a,6f736c6664676c74,68727667625a5d68,
606c78796561575b,666871777a70685d,6f7272747673726c,75767a797578766f,737a777c7d777874,7d777c7b7c7d7c79,787d747a7b797a7c,7c7c7e757c797576,79797a7a77797979,787a7a797a777576,78797b7b7b7b7876,7979787b7a7a7b79,7a7978777a7a7a7b,7a7a78777678797a,7272716e7677797a,767674716d6d6d71,
777d7d7b77716d71,75787d7e7d797372,7274757a7c7b7873,726f717175787875,7170717071757674,72706e6e716f7171,787976726f707073,757a7b7975727374,7572777978757375,7473707477757473,7375747376767573,7373727073727274,7174737371747373,8b747273746f7372,848e737073737083,6c70726e7373726e,
736c706e70737171,7270727372727372,7272717172717273,7c76757470737271,9a7d747575768c95,787974767572758f,7478757778747271,7576797877767477,7376757876767474,7374787274727172,756f747775888f77,6f6c707274728790,7671737472736e70,7a80807f77786f73,7f737e84837e817c,7c826b7880817e7f,
74757a676e797d7a,696c707460636f75,575a63666d5b5863,8182827a7a736456,707a81817c7f7e7c,7f68747e807c7c7f,72786268747a7978,6970755b5d6a7271,5963677058545e66,7f7d767571645554,797d7c7779797a7f,6a757c7b78787b70,766a6f787a76757c,7478676972757172,6b6d7267666d7070,6c7877706e626364,
5f5e777b717c6e69,7e564e727f738675,9c8756496f817693,769385634c6a7f75,73708f81705d697c,7a7d728a7e756a6b,567682767e6e666c,4a436e8479897555,8e4f3c68857a9a7e,9e8d5e41628178a7,6f97866f57627b77,75708c7e74686672,7a7a73726e6e7578,62767b737773686d,6361767e767d7660,7e6c61727d758680,
7e79756e70797680,7b787575756f7273,73757672696b6e73,7b7b7871716c6b6f,7a7e7b7676777778,7d7e7d78747a7c7b,7b7b7976706d7f7f,7172706f6e6d6c77,797370686a6e757a,807c73736f6f7378,80807b7778797c80,7f807d787a7c7c7d,807e7d78737f7e7d,7777777676727c7f,736f68696d727775,7972716e6d707476,
787574747577797b,7675727474747477,7776737079777576,747474767478797a,7163687784777474,756d636a7b888179,7b756e61667c8a7f,8779766d62667b8b,758374766f656a78,6976817176766869,5a62778780707667,6352607b8c8a7c6e,7262505b7c8f8774,817463515c7a8f83,847b75665562788b,73817877705c6274,
69727b7572715e63,6268757e7e807667,6f6264767f7b786e,796f636776817a77,777b72666a757f7b,7c777b78696a727c,778c9475796a6c74,4555758b70716664,5e373b5877767059,ae904b3444638588,82b8ca945b556591,6f538bbab0846e6f,776f3a5787968775,7d7d767477767b7a,7d7d7d797375787d,6c6f7a7d786b7273,
696b6e717a76666a,736f67696e74786e,577b766f686a7174,6a5c7675797e6a5b,a4846c74768a9883,99af9a7e6a6b86b0,2b5e88907c5e475c,6536456c7c776e3b,a38e695a68757792,7771787f76666e73,6f7372655f8da083,8d626e7c8d742937,3d8a8d796b65a1d7,9f724e66727b722e,6f6a818678746b79,747982786a727579,
6f725d517e997e75,696f81987f212663,919a806768bafea8,643e5f727665172e,6e878775716c7c9e,787d6f6774787d73,7164628791767073,747c867539487472,877a73699ac38a68,5a6a757a7a414485,767f73736b76a080,77766f6f727a6c61,7576787374717879,6b717579797a6e73,706167708185836d,85745d626c828c89,
807f745d646d7f86,7873747262666d7c,727a7b7e75787875,68707d858a756d70,535a6b8794967660,7c4d54688a9d9d7a,8e7b4f586a869497,717472575c6a838d,76797d7677777474,6d778086746e7070,5c69809091736167,5157668397977657,795359677e8e9078,63715c5e677a8689,5a5a656461636464,6567666d5f5e5c5c,
7172746f716b6966,858587867f787674,80888a8a89847884,6c7e8a91908f8b7c,515d605b5b5d5c5d,5e5f67585452514f,72736d6f66625e5d,8b8d8a827a767271,8e9393908a7b8789,84919a9997907f86,6968646768676775,6971615f60605d5f,7370736c69686767,86837e7976727274,8888858277818285,868d8b8985797e84,
6f70717774757d7c,756e72757671767e,626f666a706b676c,5b606c5d5a5a5859,60636a725e575258,656b6d727767605b,77787b7574746b67,7f858a887e7f7c76,7c7c8590887e7d77,7c787e8185837e80,7c7d777d7d7c807e,807d7d777d7b797d,686c686a6a7c7a7b,7270716c706f706d,727378746e716b75,747d7d7e7d797b74,
7a727f817f847f7c,74756e80807e7f7a,707174707d7b7a7b,7c807c7f736b636d,7691978c8270726c,7e8ab4b69e876e75,6a7d8ab7bca08770,806e6970909b8d7e,76757e63637a8582,676a6c77807e7978,595964697875756a,604641536477726d,6d5d43414f62786d,7a786f58575f6a7c,71707f7c69676b6f,716d717379767678,
70737074727b7673,65636d7378727b70,7163626b72777073,7a7f716f6f727771,777c8175716e6f72,73757c756f798176,7876757a6d475270,7c7974727c7d6c6a,787776727076787f,7274727373717573,737476737273736f,73796d636e7d7576,747676623542686f,7b78777b78605f72,7a7b7877797b807a,76737777777a787b,
787a767678797475,757a7e858374727a,7375725963767373,7072767a6e6c7471,72707073767a7573,7073727375727170,7674747376717272,7574747374767675,747370655b5f6a78,8e7773797c7f847e,6066757b88a1b3a4,424d5f71716d695d,8188887d726e6350,6f6e6c6d72727679,726d61595f6e7773,7a757e8890958a76,
5d798295b8cdb897,385173736c665956,85867b6f68563d2b,747574736f73757d,716a646671727371,727372747a7a7573,74787d8d9a8f7f78,697576726f67696c,867e75726b60555f,5f636771777a8085,5159616b68665b5b,52545c6d79605b4d,63646d7681826159,787f868e8f908464,7c7f8a949a968e7b,7c7b8d939ea09389,
7f7c7a7d7c7a7a7e,707277777f7c767b,74757a7b777a7471,75747575736c7976,6e6d6e72736e6676,7c6d6b6f726f6968,807a7b7f81828481,7a75708587898c8b,7c7873708281837f,6b67646465858381,645f5f64656a7670,655f5f6164656d6b,7d797672787f8082,7477736f696e767c,666f75706863676f,67666b726e645e5f,
6968686e746e6869,6a6468717779716a,7475717375747274,7174747171747673,7272716f6d717272,7372726e6c6d6f6f,776f70716e727c7c,6d707275746f7178,7673716d6a67726f,7a807f7c75736d73,747b8185857b756f,7e777e858c8b7f7c,7a79767d8a9a9784,7d7877737a85908a,75767b7c807a7c7e,756e6e747b81817c,
776f68686e787e7a,75675f55585f6b77,6976676056566169,68727b6b67615c60,6d67656170706964,77746b696665666c,7f8985756f656c6f,8899a5a38b7e7179,6f8fa3b3b09c8877,7b6b8898aaa49180,7d7c7c7e8a989384,7a7e7d7c7c7a7979,70747b7b77797879,655b637074747570,6c594b526b72756f,7c6a564b4e647074,
716f73665f61717c,73726e7074757570,7873706e73777676,7f7e787775747676,898d857977737c7d,828f93887e79747e,787c85837f787571,7675717575747376,7172727373717373,756d6f72706e6d72,91826e6c6f6e7277,8b9483716d6f7186,6874756f696a6d73,7774757372747778,787878767375787a,70757877716f7377,
726e75786d6a6c6c,7c7171787b68737b,6a676770797c6975,6f737676716c6e67,6e767a7d7b79706d,736e787e807d7973,7a726f787c817f79,7b76706e797d8480,797874706e787b80,7d76767a78787476,80796d6c78777480,757c736464757a76,7475776c62647278,727576756c676672,6d777979756e6767,70707b7b7c776f6a,
6e5e60747674807a,7567565871787779,777263575a717777,777870655c5e7274,7a7b7c7168606174,74747474756c6569,7474747474747474,7474747474747474,7474747474747474,7474747474747474,7474747474747474,7474747474747474,7474747474747474,7474747474747474,7474747474747474,7474747474747474,
7474747474747474,7474747474747474,7474747474747474,7474747474747474,7474747474747474,7474747474747474,7474747474747474,7674747474747474,7576757474747474,7578777575727173,7c78777576757477,7477767675767475,7575757777767574,7877767776767876,7177757474747275,717173726e6f706f,
75706f7270707573,72716e71726e7079,6e6f706f7273706e,747172706e747471,7373757775717075,727273757a797471,7b7171737d8b8479,837974717382968c,7b79747372737d89,7478757174717275,7474747474747273,7474747474747474,7474747474747474,7474747474747474,7474747474747474,7474747474747474,
7474747474747474,7474747474747474,7474747474747474,7474747474747474,7474747474747474,7474747474747474,7474747474747474,7474747474747474,7474747474747474,7474747474747474,7474747474747474,7474747474747474,7a71707474747474,68577077776f7083,2f3d8d83736e80a2,4069cd7f6377858d,
6b81af5048867a71,73797659649d786e,7275707479866d6d,5471787a6e6f8079,43a790776c7e9c5c,84fb8e576a7c801f,94c7472974716b3f,81784b4994787374,71716e728576717a,72787d6d657a7670,9484756774976b5f,ce7f627374884150,a84a447d7173537b,77565e9573707185,7371737e6d70797d,6c7076737a756972,
63796d728584677b,b77d7276684ead92,3d5496746f885231,6a8d4e7979795ea8,897277706b738863,75776a737e727673,816f7581785e7c72,726c7a7449a0885d,4d936d6e9e5f1bac,a25278766c64ce47,64797873767f5574,7a696c817776717d,72767b615a817379,6d7a7a5f8f695982,856a6b9c80499b5e,6777736b5ec16e63,
757f7679795768a4,7e63677f716d7960,7f9b4a6a83737380,6a7db72e6d84756c,776b78b72e6c8176,7e757178994a6b80,667c7574797e6a69,6368817178787176,a8426284746d8680,8bd11f6287766189,5a87d6226184775a,736580aa44637e74,7d716e7d826b667e,707971757b717a68,5d7278746f7f7a6f,af45757572687a94,
71b1487674746373,6c72925d73737666,7471777a756e7573,7575747b727e6c76,897e7778716d7778,4a51626b818b999d,233f6472746e6e5e,97aeb5927a70553b,767c766f7076757e,7275746f71707474,7e747874737a7b77,435b668196a4a28b,2e5d707467675137,c3ca9f81754b2b10,848177767b7882a3,72706a6c6f73717b,
73736f6d6e707274,6d6c767f87897d7a,6f7775737b756263,9d7f737166564658,6d686f797c7d8b9c,706f737273727672,7b7a7b8364557373,5d757b7a96814c51,9d7f6f797a9fad82,838b856363638aa3,50717f7f695a4763,6c5764727a7c7152,7578805f51728084,777c7d9b84495078,7c71797ba3b28259,8d826461628ca8a0,
72817c6b5b486587,586775797c73524f,71786a66867c846e,756e7f77586b756f,77796f7c8a746779,7473716c78807e74,7773787369717775,7477797a7c706977,835e7072747e7b6d,9e9c526a7a6a728b,599fa84b64766567,655094ae55657564,746e58829d656a74,74727668748a706d,5a6f737771718179,a64b64756e769186,
afba485e716268a9,4ba3c25560715d56,6a5186a965666d60,7377657490737074,7974787272827a76,59767875727d7a65,915272767165858a,8597597278725f87,61778a647275755b,7c6d717e6d747878,807772717b757672,777d867b6a6b767e,62707b7d6d585b6a,4e5c687378635054,4e515b636b715d4e,665b5f6d74756c5a,
7c71666c7a818076,6d72777773716e66,7972777b7c7d7874,857f757b7d82847f,87807a727e848a89,7e7d7a766e7d7f87,75777775756d7a7a,7176797575767276,756e747675737473,76766e7175777675,7574756e72777576,737473736f717775,7573737374707175,7a7c7d78757c7173,727374726d6a6c78,72727473706d6c6c,
7e78727572727372,7b7a767378797d7f,78797b7b6a71777a,7878747379666c75,7473716e6c6d7778,767673706e6f6f76,7a77777372747575,7e79787b797c8180,7f807f71767a7e7f,767371756e747b7e,72716e6d6d767675,75706f6d6e6f7674,7977707071737477,737a7973777a7a75,7979757675787776,7174737576777877,
757d756e74737874,715577897675746e,7fa968366e7e7982,6f5794d17453746b,767b583a85a9766e,777580846850767e,7b78737577776f72,4264857a77796c6c,c3701f5b787a8972,4fadff834a6d6889,72452c95c17e6e66,76817c574275807a,7370767376717075,72827473736e737a,683c6a78777f6f55,94ca775a736e7d9f,
624684a2756f7560,777f6e59777b7877,7474747474747474,7474747474747474,7474747474747474,7474747474747474,7474747474747474,7474747474747474,7474747474747474,7474747474747474,7474747474747474,7474747474747474,7474747474747474,7474747474747474,7474747474747474,7474747474747474,
7474747474747474,7474747474747474,7474747474747474,7474747474747474,7776747373747474,778d7d6a6c737671,7d8e8a50506f7870,7683784b2c748f80,736b6e594d6fa88f,7764656d6f7b9394,78726f7172727a83,977d64697377737b,98883c3e6c787580,8973330f69958586,726b493662b19d7f,6d6b68677697a27f,
7673747576808b82,81747374726f7274,8f635e71726a6e87,8161467885787586,7262596e967d7182,7271727883826d70,717077757578756d,7d6c7176756f777c,80865c7974717176,5ab1575a866f7b66,6488a51a927b737a,746d9f534da16377,71737979508c7675,6b72747473777b70,84517b757476777e,be494e8b717e6885,
92a600948377795b,6ea54043af677a61,73767646937d7077,7774737377777074,687c767579707572,666e7f7180686f81,9f3d9a70777b4d9a,90606b975b795e71,75786391676c7767,746f797671717476,706965797f7a7573,697760749a886d67,6c897c7a9fa14f47,6a9e83738a8f5021,728b856c6d786646,6e79797476736a6b,
686983857a746e73,746681aa8e67626a,897f85aea7403462,a38d7b8d8d3c015f,8f8e7672765b315f,797571737369676f,6975787674707773,66708e85736d706e,7575909c5f596f75,79747d855a35707e,796d76786c537192,747775756e6e7381,7071727474757071,71787a736f70706f,727a8986786e6f70,726e788484776d6e,
7573686d74787471,73726d646a6f7574,7e7c7b716c6c7171,9192877d7276797e,93a8a49280737d84,8492a2a190807186,697b808b8c837a6d,717b74787d807873,6c6f7a7e807c7976,535f6e7e78776c6a,373751677e6d6250,51343652687b644f,7c6d555567748165,73877e6e6a6f747f,7971737573747574,7b8471746b7c736d,
5fba64716c818a48,53d1754d83768d39,629c883680777f61,71747e5c7a827074,727678726a737a79,8b6e796e7b6b6f81,db616870827d3986,fd853a7d75811d67,b098257077795253,7881506c7d777765,7575706f76777779,6e766c7977717a72,606e6e7c89527c82,725183748b4163b1,82428075796256c6,7d5e7c7972746595,
717477797b777777,6e6f7175787c796f,776d6e6e6f727777,767a70706e6d6e74,7377797573716f70,7675787876747372,7577797b78787676,6d6f737679776f71,6d6d6d6e7176766c,78706f6e6d6e7375,7778757371707176,7677777775747374,7472717278767777,7071706f706f7173,7170706f70706d6f,717272706e6f706f,
7273737271707072,6d6f727271717170,777475706f70706e,64747a726f717c6f,9889548073706593,5838bb5c74758739,72af2289886c7399,755e966d56847475,70746f7586647573,7178746a73827074,a0587f726a5c9d6a,1ace656f72881f99,b20186936c73a640,68a3624989767782,74717a865d747273,767470747a707872,
5c80716d6a8c6275,b05b747481449481,388a826c738e6348,87726084737668a5,756f7d6577737363,7679656d77717176,7679585369797072,787d7a4e5a7b8674,887b7972566c8e8b,8585756d6d5e768c,7f85806d6e736879,79636c767170746e,7a514a6578707175,817b44537c887679,807f744c6a95907c,8777706c5a78938c,
867e6c6e72687c89,6f71767272737081,6d606b736d717387,796464797c707578,797266708780747b,7471706774817b77,786f72756d747b7b,757578776f70797c,8e8d86857f726f77,838584817d797186,6f807f7f7d7c7a75,706e767673727574,616368706f69696f,7b7c7a715a5a585a,948e8a847670797a,898a87817c738b93,
818282817f7d7786,6c7476727174746f,5f666c6a64636b6e,72736d575652545c,84817e7269717372,817e797870838c8d,7a7b7a797a767f81,717372737677717a,7071706c6c717573,767462615e5f6569,7574747675747672,7070757777727475,6c655f6678747575,7169615a62777375,7477767572787e70,757576777b7d7e78,
7174767470727073,6b71767570707171,5e5961787473716c,645a535f79727367,7773716f767f706f,7676737779797575,7676777678747773,7b7977757a7a7979,6b707c76797c7979,67626b79777b7570,727070767a75766e,7472757879747275,786e766b7a717473,737b7569767b7275,75727d7850877372,6874718e6e3ca46e,
a06a747495583eae,6687717675915855,6d716e7f7277845b,7c73617983737575,6f827141907f7071,7070975d26bc7c72,7370719d4028ce74,9676727595434aba,726d7c7176805264,7a6b787d73757371,747c578676747277,6e7e714aa36f7670,7370835f4eae6a74,7173748260619f6b,736f727579666e88,7a7d736768757573,
737b9497806f7376,6c6349639196806e,6e7c835e304c7886,746c7587966e5057,7576746a6e828782,857f716e73747577,7599a68f7871767d,532d4b8ea28b6969,83844d0d30728768,667d93a063394563,7778717d98968773,716d727374737476,89897a7174747775,5162858a7771717a,80683e55797e6e63,757f9271565b6b7c,
6c7474838482776c,756f6e717a7e7770,777470787c81827a,7c767772777a7c7f,7b807a7a76757979,737c817772707377,6d75808273706e6c,706e70777c76726c,7770797a7d7f7a77,787b737879797c77,7e7b7c76787b787b,7c817a7773767879,7a82857876717276,6d6f787c756e6873,6f7a7b80817b7670,76707778777b7574,
7678747577737573,7f7774717373757a,7e81757573707279,7678797977737376,7b7a7e786f6f7576,727879796961646f,75767777746a676a,7676747677747273,7676787574777475,7375757472767775,7878726a6b717675,767876665e606d77,7475777369646670,7674767773727172,7575737579757777,7274737476787375,
72706c6d7471706d,7372696566716f71,6f72706c6b6c746e,7471736f72747376,7071727671757774,77756f71726d7071,8185807272767779,5c5c7b8e84707476,806c3e406f876b6a,7c88997b4f516d7b,716f73919a827071,787368606e808076,88887c7474737576,4970918a7371707d,6625215a7e6b654f,98ac803f3c617f84,
7480a5a9876c6c86,7367667a8c897c75,7a75767475727076,7a857c7573767e7c,4c4d6e7b6c6a6062,93825e5e70797c6d,778a8f8074737e84,6b6a717a79737373,0000000000000000;
